r e
e r
o n
e n
Ġ a
i n
a t
Ġ t
o r
a l
Ċ -
Ġ s
e s
Ġ c
Ġ re
c e
a n
i on
e d
i t
Ġ p
i s
h e
l e
en t
r o
c t
Ġ f
Ġ |
Ġ b
in g
v er
Ġ d
Ġ e
a r
Ġ w
l o
Ġ m
s t
Ġ n
u t
u n
Ġt he
* *
Ġ `
a s
Ċ Ġ
i c
at ion
e t
o m
Ġ -
Ġa n
v i
a b
u s
o t
p t
Ċ #
i m
Ġ in
i l
a c
Ġ is
Ċ# #
Ġ o
en ce
Ġ **
l y
a g
at e
Ġt o
u l
Ġp ro
e l
m ent
Ġan d
i g
Ġ C
or t
u r
Ċ |
Ġ h
i pt
p p
Ġre p
o d
o l
Ġe x
Ġ l
Ġ A
ab le
Ġn ot
Ġ â
v e
Ċ `
ct ion
es s
Ġt h
a m
c h
ac k
e m
es t
Ġ (
ce ipt
Ġ R
e x
Ġs t
Ġc on
Ġ F
a p
an ce
** :
Ġ g
a d
i f
i d
Ġ T
e c
ver s
s ,
a ct
Ġ r
p y
it h
Ċ` `
Ċ`` `
v al
u e
Ġ "
Ġf or
Ġre ceipt
vi d
ex t
Ġ S
l a
Ġc om
t h
Ġ lo
in ance
vid ence
as h
Ġ un
Ċ T
t er
en d
a in
ag e
c o
Ġâ Ģ
e p
ĠâĢ Ķ
Ġw ith
Ġ O
Ġ or
o s
Ġs u
c al
d u
m ar
re d
i /
an d
Ġ P
Ċ## #
i ve
o w
or k
Ġe vidence
Ġ it
ap i/
. py
Ġa pp
t o
Ġ on
Ġ us
Ġw h
s /
Ġ E
la im
ig ence
p ro
v en
p ort
or m
is t
q u
l l
it y
Ġb y
Ġ M
p le
or d
r st
i le
u re
Ġd o
e w
r an
in e
i al
Ġ- -
Ġo f
en er
Ġre al
lo w
in t
Ġb e
ack et
o un
d er
e ct
Ġ L
s .
/ api/
s :
Ġa s
ven ue
u st
ĠR e
Ġ \
Ġc laim
i b
Ġc h
at ed
il igence
f e
Ġcon t
Ġth at
v ent
a y
Ġ val
od e
o ver
re n
g ent
inance able
s e
c k
ĊT he
i re
vi ew
i z
or y
Ġ D
ol s/
p ut
Ġa r
Ĩ Ĵ
Ġr un
at us
I t
th on
t e
Ġ 1
k en
Ġlo cal
f orm
er s
id e
l ic
n al
Ġcom m
Ġd iligence
o f
o ut
Ġs h
L M
Ġt est
os it
t ext
Ċ A
u m
Ġ U
mar k
en ch
ench mark
rst f
Ġw ork
ut ion
ter nal
Ċ â
ep lo
eplo y
t t
g er
Ġb u
Ġ G
u al
g e
Ċâ ĨĴ
Ġpro du
Ġth is
ul t
Ġo ut
r a
Ġs c
e f
p er
Ġre venue
Ġ W
an t
u d
p r
Ġrep ort
Ġp acket
p e
o g
Ġh ash
ess age
u p
l es
Ġn o
Ġ im
Ġâ ľ
Ġâľ ħ
L LM
Ċ O
o re
ig n
Ġre view
P I
` ,
ver y
' s
ple ment
Ġ N
P T
ĠO ver
u b
Ġa re
ran s
i lo
ilo t
Ġre c
o ur
Ġt ext
i er
G PT
Ġg ener
h is
Ġcom p
- re
Ġc an
f inance
k e
Ċ It
Ġapp ro
el f
Ġd et
al l
Ġa l
" :
a re
Ġa gent
Ġs y
Ġrep o
er pr
S T
Ġ H
py thon
em o
ut h
ic al
e ction
Ġ le
oun d
o ul
oul d
om m
ro du
Ġf inanceable
h at
Ġre s
e at
Ġs p
Ġto ols/
Ġt r
Ġm od
p h
r on
c ess
2 .
Ġpro of
ĠA I
st em
er m
ar t
Ġe vent
ac h
t if
tif act
re ate
b ash
Ċ``` bash
Ċ python
y pe
ul l
pp ort
ĠC I
- f
rans form
o int
/ re
Ġar tifact
Ċ C
Ċ R
m d
Ġa c
i x
at h
Ġa ut
j s
Ċ c
Ġ 3
elf -
em ory
a fe
o p
ed ger
Ġp ilot
.py `
r ipt
ro m
r it
ow n
s s
Ġex ternal
at a
Ġ B
ation s
Ġn e
g o
qu ire
un ction
r i
co re
ab el
Ġsy stem
Ġf ile
- -
Ġ +
G E
at es
Ġdo es
Ġappro val
i p
- a
al se
on e
ĠT he
Ġ V
js on
as e
Ġ I
il d
Ġs elf-
um an
- b
im e
an g
t atus
a ce
Ġm e
Ġ /
Ġ /api/
Ġrec ord
mar y
ĠE x
ing erpr
ingerpr int
ly ph
Ġb enchmark
rstf _
r u
Ġto ken
plement ation
Ġa d
Ġd emo
Ġd eploy
Ġd ef
on t
Ġdo c
ĠF ile
l at
et r
Ġl edger
as s
ĊO ver
ign ed
Ġw as
a il
Ġun der
eat ure
Ġf rom
Ġwith out
- w
oun t
. md
) .
Ġval u
Ġit s
ren t
if ic
on ical
0 %
am p
ot h
o us
Ġc ode
Ġa ct
Ġcon f
s **:
in al
unction al
Ġ** S
ec ution
Ġval ue
Ġ- >
Ġin t
pro ve
ll m
tt p
am e
Ġrep rodu
ib le
s w
Ġreceipt s
Ġl abel
v es
a k
O ST
as k
en s
Ġsu m
i es
Ġs ec
u le
s ide
i ed
u g
he re
am a
A PI
Ġon ly
Ġsu pport
en c
Ċ 1
Ġw ord
prove ment
Ġh uman
Ġr ate
** ,
Ġex port
il ity
ĠW hat
k ed
Ġin to
s er
Ġa tt
p oint
Ġout put
Ġsu b
Ġ 5
Ġvalu ation
f ingerprint
) ,
it s
ar ial
vers arial
o od
vers ed
ar y
Ġex p
Ġb ec
ll ama
pt ion
Ġus er
Ġsh ould
Ġ` /api/
u ment
er c
Ġre ad
ic h
Ġs core
el l
Ġm emory
el ine
/ rstf
over llm
i rst
Ġan sw
ag ent
en g
he ck
Ġc heck
Ġp re
Ġwh at
il es
Ġin c
_ p
to ols/
ĊT his
ĠE n
- |
-- -|
Ġ/api/ finance
c ript
GE T
Ġ qu
om og
_ re
b enchmark
Ġf alse
i r
ab les
to ken
Ġact ual
v el
lo ck
Ġ v
Ġ` go
ĠO llama
Ċ E
j ect
il l
a st
Ġ** D
g r
Ġdoc ument
Ġst atus
ĠOver GPT
ro l
Ġa b
end er
e le
Ġcomm and
Ġon e
Ċ >
Ġrep osit
er al
s `
Ġs igned
ĊR e
I m
ant ic
em antic
_ fingerprint
Ġre co
Ġdet ect
t he
c an
Ġp osit
ep end
amp les
f ood
us e
o st
Ġwh en
Ġb ack
is s
on om
ul ly
Ġp ath
Ġo per
ar d
Ġbu ild
m ain
4 .
tatus **:
Ġ**S tatus**:
Ġ vi
at ch
ur rent
Ġwh ich
- c
as eline
Ġ ver
er ge
Ġtest s
ĠT ier
. c
/ d
m pt
fe ren
Ġ** C
Ġt ransform
w are
-re ad
ol lat
ollat eral
l ess
ed ,
Ġth es
Ġ =
_p acket
d point
Ċ| ---|
Ċ|---| ---|
Ġsum mary
w rit
Ġc reate
- s
our ce
ener ate
at ive
Ġf ull
Ġ [
Ġby te
r ing
id i
omog lyph
if ied
_ s
/ `
Ġs e
Ġb ound
Ġdeploy ment
g et
ce l
f ace
Ġ i
M essage
Ġi Message
Ġre quire
if y
" ,
y thon
ĠC omm
ĠS t
ur l
ĠN o
ĠF unctional
Ġin ternal
p on
Ġ** F
Ġex ecution
Ġc or
low ed
ur n
/ p
Ġcon vers
ĠM ac
erc ial
low -
Ġlo op
in ess
Ġg ate
Ġpro p
_ d
Ġword ing
Ġb aseline
m y
ig h
Ġch ar
ĠOver LLM
ttp s:
ttps: /
A D
t ime
Ġreprodu c
ud it
Ġas s
ay er
Ġl ayer
finance _packet
Ġ ent
P OST
cript ion
Ġunder writ
V E
- d
w ork
ĠE vidence
o cal
.md `
emantic _fingerprint
s emantic_fingerprint
Ġre vers
r ide
in d
Ġe m
onical _
Ġf l
t est
am ple
Ġdet ection
5 .
Ġo ver
Ġb ut
Ġex amples
g it
om er
ust omer
Ġd ata
co st
6 .
Ġm an
h a
a use
Ġbec ause
g ing
Ġne ed
ĠV er
o ck
. json
onom ous
Ġprodu ct
Ġs er
Ġp ub
- p
Ġ1 .
erm inal
r ib
ur ity
ific ation
Ġp er
on d
f low
ent ial
Ġd is
Ġs afe
ru ct
ug h
ell igence
Ġst ron
Ġp ri
Ġcont act
Ġs ent
o ve
Ġs o
ĊOver GPT
re ct
ĠA gent
Ġim provement
Ġf ail
Ġchar act
ren der
ttps:/ /
ag es
-f irst
Ġansw er
Ġch ain
Ċ S
lo cal
feren ce
Ġp art
Ġc le
ar k
Ġprodu ce
Ġp ay
Ġg ran
Ġgran t
Ġ` api/
o k
Ġm ore
y er
Ġbu yer
h y
/re port
Ġm on
re t
Ġ It
n ot
r ap
Ġm essage
f l
ĠU n
re e
h ash
Ġfl ag
6 0
m od
epend ent
Ġrun s
is h
Ġsc an
w n
Ġc ustomer
Ġe val
Ġa ll
0 0%
Ġse e
Ġbe f
Ġbef ore
an ge
ar get
on ly
- only
Ġs end
Ġthes e
Ġm ust
ran ch
Ġ 2.
O N
0 .
ĠRe act
Ġsh ow
- m
Ġe very
ĠA pp
te gr
tegr ation
Ġl ist
ð Ł
Ġ ðŁ
Ġ**D es
r or
Ġf ol
ab ility
ack ed
) :
. go
Ġt ask
low- up
ro ugh
Ċ N
ĠP R
red ential
versed `
at in
Ġtools/ rstf_
M E
etr y
m etry
es ,
Ġch ang
Ġgener ated
- e
Ġreposit ory
ark et
Ġme as
u red
Ġevidence .
orm al
i ves
Ġf iles
Ġres ult
th er
v o
ĠF inanceable
Ġcon s
Ġ` GET
/ s
finance_packet .py
Ġtools/ finance_packet.py
2 5
- l
Ġ-- out
Ġex act
t es
Ġs ame
up side
ic ode
over ride
st it
can onical_
Ç Ŀ
t ic
tools/ rstf_
Ġ( `
w o
l ed
im ate
l ish
Ġo wn
O R
Ġc ount
Ġtoken iz
v ing
' t
Ġim plementation
vi ron
viron ment
g re
Ġb lock
ut e
Ġ y
lo ud
Ġt arget
ĠL ocal
ĠA PI
Ġaut onomous
Ġis :
Ġa g
Ċ B
vi ce
ĠC on
ĠG it
Ġs et
ĠComm and
l an
ĠP ython
Ġb o
Ċc url
red i
Ġ '
Ġpub lic
ĠT erminal
p en
e red
ĠF ully
Ġ**Des cription
Ġ**Description **:
Ġ** Im
plementation **:
Ġ**Im plementation**:
Ġ J
ĠI n
etr ic
ĠA ct
a ult
oth er
is al
ra isal
qu est
d en
Ġo ption
Ċ1 .
Ċ 2.
3 .
ke y
Ġ ]
a ke
Ġcomm ercial
Ġint elligence
v ed
Ġint ent
Ġ vers
Ġm erge
ut put
ĊO utput
ĊOutput s:
Ġc redential
Ġqu al
Ġqual ity
Ġvi r
e vel
ĠL evel
Ġlo g
.go `
g /
k g/
Ġcont rol
benchmark /rstf
Ġ1 00%
ĠR ender
E AD
ele metry
Ġreceipt s,
iz ed
eng ine
ang u
angu age
ĠT his
Ġp la
Ġm arket
Ġwh o
Ġp ack
Ġd es
Ġs ur
in ked
Ġreview er
is e
at ter
Ġ` POST
Ġevent s
Ġus age
ation ,
ĠC S
Ġrecord s
. .
L E
LLM _
R LLM_
VE RLLM_
25 6
d d
o c
I N
f er
Ġmod ule
Ġby tes
Ġsp ec
ĠUn icode
y r
yr il
yril lic
ĩ "
s ÇĿ
sÇĿ Ê
Ê ĩ
sÇĿÊ ĩ"
Êĩ sÇĿÊĩ"
Ġt ables
Ġdetect or
Ġex ist
ad versarial
Ġh and
git imate
Ġn on
og food
ix ed
Ġbu g
Ġposit ive
Ġe ach
Ġs a
Ġch ange
Ġconf us
Ġad versarial
ĠT r
ain ing
ĠVer cel
m l
ch ain
i red
Ġs ource
a pp
Ġp erm
. **
Ġst ate
Ġag ain
Ġagain st
Ġc l
ĠD eploy
e b
Ġb ranch
Ġin st
redi ction
Ġapp lic
Ġin tegration
Ġac cess
Ġ he
Ġun a
Ġ** API
ĠJ S
ĠJS ON
eature s**:
Ġ**F eatures**:
Ġd ire
Ġres pon
ur al
f ul
or ing
Ġdef ault
7 .
8 .
f f
it ion
Ġin ter
Ċ 3.
Ċ 4.
Ċ 5.
Ġp ers
Ġ Ġ
ation .
Ġoption al
Ġst ill
g est
at or
Ġfol low-up
Ġdef in
Ġrep ly
Ġth an
Ġexp lic
Ġexplic it
Ġun s
Ġvers ion
Ġr a
Ġra w
re ak
th rough
reak through
Ġb reakthrough
Ġcor rect
Ġst able
Ġa t
Ġw ould
w all
ire wall
ef ul
Ġus eful
Ġar my
Ġ ro
Ġinc re
t en
Ġprop os
Ġ 4
t ed
/p kg/
Ġ`go /pkg/
Ġc ase
Ġ here
* `
Ġcharact er
-w ord
/ over
re p
s v
EAD ME
y le
O ver
Ġpro ven
f inanceable
+ +
Ġ engine
Ġ** R
Ġl anguage
Ġd e
on ent
Ġcomp onent
Ġfor k
Ġprodu ction
-read y
Ġun less
Ġp ass
ĊOver LLM
Ġa udit
Ċ``` text
able ,
he ther
Ġw hether
i ce
Ġinc l
Ġincl ud
i ke
erpr ise
Ġent erprise
ĠEn dpoint
Ċ|---|---| ---|
Ġ/api/finance /re
ĠRe venue
in k
um mary
c es
/ c
ĠCS V
re ad
.. .
Ġus ing
LE D
S E
Ġ-- s
