{
"!": 0,
"\"": 1,
"#": 2,
"$": 3,
"%": 4,
"&": 5,
"'": 6,
"(": 7,
")": 8,
"*": 9,
"+": 10,
",": 11,
"-": 12,
".": 13,
"/": 14,
"0": 15,
"1": 16,
"2": 17,
"3": 18,
"4": 19,
"5": 20,
"6": 21,
"7": 22,
"8": 23,
"9": 24,
":": 25,
";": 26,
"<": 27,
"=": 28,
">": 29,
"?": 30,
"@": 31,
"A": 32,
"B": 33,
"C": 34,
"D": 35,
"E": 36,
"F": 37,
"G": 38,
"H": 39,
"I": 40,
"J": 41,
"K": 42,
"L": 43,
"M": 44,
"N": 45,
"O": 46,
"P": 47,
"Q": 48,
"R": 49,
"S": 50,
"T": 51,
"U": 52,
"V": 53,
"W": 54,
"X": 55,
"Y": 56,
"Z": 57,
"[": 58,
"\\": 59,
"]": 60,
"^": 61,
"_": 62,
"`": 63,
"a": 64,
"b": 65,
"c": 66,
"d": 67,
"e": 68,
"f": 69,
"g": 70,
"h": 71,
"i": 72,
"j": 73,
"k": 74,
"l": 75,
"m": 76,
"n": 77,
"o": 78,
"p": 79,
"q": 80,
"r": 81,
"s": 82,
"t": 83,
"u": 84,
"v": 85,
"w": 86,
"x": 87,
"y": 88,
"z": 89,
"{": 90,
"|": 91,
"}": 92,
"~": 93,
"¡": 94,
"¢": 95,
"£": 96,
"¤": 97,
"¥": 98,
"¦": 99,
"§": 100,
"¨": 101,
"©": 102,
"ª": 103,
"«": 104,
"¬": 105,
"®": 106,
"¯": 107,
"°": 108,
"±": 109,
"²": 110,
"³": 111,
"´": 112,
"µ": 113,
"¶": 114,
"·": 115,
"¸": 116,
"¹": 117,
"º": 118,
"»": 119,
"¼": 120,
"½": 121,
"¾": 122,
"¿": 123,
"À": 124,
"Á": 125,
"Â": 126,
"Ã": 127,
"Ä": 128,
"Å": 129,
"Æ": 130,
"Ç": 131,
"È": 132,
"É": 133,
"Ê": 134,
"Ë": 135,
"Ì": 136,
"Í": 137,
"Î": 138,
"Ï": 139,
"Ð": 140,
"Ñ": 141,
"Ò": 142,
"Ó": 143,
"Ô": 144,
"Õ": 145,
"Ö": 146,
"×": 147,
"Ø": 148,
"Ù": 149,
"Ú": 150,
"Û": 151,
"Ü": 152,
"Ý": 153,
"Þ": 154,
"ß": 155,
"à": 156,
"á": 157,
"â": 158,
"ã": 159,
"ä": 160,
"å": 161,
"æ": 162,
"ç": 163,
"è": 164,
"é": 165,
"ê": 166,
"ë": 167,
"ì": 168,
"í": 169,
"î": 170,
"ï": 171,
"ð": 172,
"ñ": 173,
"ò": 174,
"ó": 175,
"ô": 176,
"õ": 177,
"ö": 178,
"÷": 179,
"ø": 180,
"ù": 181,
"ú": 182,
"û": 183,
"ü": 184,
"ý": 185,
"þ": 186,
"ÿ": 187,
"Ā": 188,
"ā": 189,
"Ă": 190,
"ă": 191,
"Ą": 192,
"ą": 193,
"Ć": 194,
"ć": 195,
"Ĉ": 196,
"ĉ": 197,
"Ċ": 198,
"ċ": 199,
"Č": 200,
"č": 201,
"Ď": 202,
"ď": 203,
"Đ": 204,
"đ": 205,
"Ē": 206,
"ē": 207,
"Ĕ": 208,
"ĕ": 209,
"Ė": 210,
"ė": 211,
"Ę": 212,
"ę": 213,
"Ě": 214,
"ě": 215,
"Ĝ": 216,
"ĝ": 217,
"Ğ": 218,
"ğ": 219,
"Ġ": 220,
"ġ": 221,
"Ģ": 222,
"ģ": 223,
"Ĥ": 224,
"ĥ": 225,
"Ħ": 226,
"ħ": 227,
"Ĩ": 228,
"ĩ": 229,
"Ī": 230,
"ī": 231,
"Ĭ": 232,
"ĭ": 233,
"Į": 234,
"į": 235,
"İ": 236,
"ı": 237,
"Ĳ": 238,
"ĳ": 239,
"Ĵ": 240,
"ĵ": 241,
"Ķ": 242,
"ķ": 243,
"ĸ": 244,
"Ĺ": 245,
"ĺ": 246,
"Ļ": 247,
"ļ": 248,
"Ľ": 249,
"ľ": 250,
"Ŀ": 251,
"ŀ": 252,
"Ł": 253,
"ł": 254,
"Ń": 255,
"re": 256,
"er": 257,
"on": 258,
"en": 259,
"Ġa": 260,
"in": 261,
"at": 262,
"Ġt": 263,
"or": 264,
"al": 265,
"Ċ-": 266,
"Ġs": 267,
"es": 268,
"Ġc": 269,
"Ġre": 270,
"ce": 271,
"an": 272,
"ion": 273,
"ed": 274,
"it": 275,
"Ġp": 276,
"is": 277,
"he": 278,
"le": 279,
"ent": 280,
"ro": 281,
"ct": 282,
"Ġf": 283,
"Ġ|": 284,
"Ġb": 285,
"ing": 286,
"ver": 287,
"Ġd": 288,
"Ġe": 289,
"ar": 290,
"Ġw": 291,
"lo": 292,
"Ġm": 293,
"st": 294,
"Ġn": 295,
"ut": 296,
"un": 297,
"Ġthe": 298,
"**": 299,
"Ġ`": 300,
"as": 301,
"ĊĠ": 302,
"ic": 303,
"ation": 304,
"et": 305,
"om": 306,
"Ġ-": 307,
"Ġan": 308,
"vi": 309,
"ab": 310,
"us": 311,
"ot": 312,
"pt": 313,
"Ċ#": 314,
"im": 315,
"Ġin": 316,
"il": 317,
"ac": 318,
"Ġis": 319,
"Ċ##": 320,
"Ġo": 321,
"ence": 322,
"Ġ**": 323,
"ly": 324,
"ag": 325,
"ate": 326,
"Ġto": 327,
"ul": 328,
"Ġpro": 329,
"el": 330,
"ment": 331,
"Ġand": 332,
"ig": 333,
"ĠC": 334,
"ort": 335,
"ur": 336,
"Ċ|": 337,
"Ġh": 338,
"ipt": 339,
"pp": 340,
"Ġrep": 341,
"od": 342,
"ol": 343,
"Ġex": 344,
"Ġl": 345,
"ĠA": 346,
"able": 347,
"Ġnot": 348,
"Ġâ": 349,
"ve": 350,
"Ċ`": 351,
"ction": 352,
"ess": 353,
"Ġth": 354,
"am": 355,
"ch": 356,
"ack": 357,
"em": 358,
"est": 359,
"Ġ(": 360,
"ceipt": 361,
"ĠR": 362,
"ex": 363,
"Ġst": 364,
"Ġcon": 365,
"ĠF": 366,
"ap": 367,
"ance": 368,
"**:": 369,
"Ġg": 370,
"ad": 371,
"if": 372,
"id": 373,
"ĠT": 374,
"ec": 375,
"vers": 376,
"s,": 377,
"act": 378,
"Ġr": 379,
"py": 380,
"ith": 381,
"Ċ``": 382,
"Ċ```": 383,
"val": 384,
"ue": 385,
"Ġ\"": 386,
"Ġfor": 387,
"Ġreceipt": 388,
"vid": 389,
"ext": 390,
"ĠS": 391,
"la": 392,
"Ġcom": 393,
"th": 394,
"Ġlo": 395,
"inance": 396,
"vidence": 397,
"ash": 398,
"Ġun": 399,
"ĊT": 400,
"ter": 401,
"end": 402,
"ain": 403,
"age": 404,
"co": 405,
"ĠâĢ": 406,
"ep": 407,
"ĠâĢĶ": 408,
"Ġwith": 409,
"ĠO": 410,
"Ġor": 411,
"os": 412,
"Ġsu": 413,
"cal": 414,
"du": 415,
"mar": 416,
"red": 417,
"i/": 418,
"and": 419,
"ĠP": 420,
"Ċ###": 421,
"ive": 422,
"ow": 423,
"ork": 424,
"Ġevidence": 425,
"Ġit": 426,
"api/": 427,
".py": 428,
"Ġapp": 429,
"to": 430,
"Ġon": 431,
"Ġus": 432,
"Ġwh": 433,
"s/": 434,
"ĠE": 435,
"laim": 436,
"igence": 437,
"pro": 438,
"ven": 439,
"port": 440,
"orm": 441,
"ist": 442,
"qu": 443,
"ll": 444,
"ity": 445,
"Ġby": 446,
"ĠM": 447,
"ple": 448,
"ord": 449,
"rst": 450,
"ile": 451,
"ure": 452,
"Ġdo": 453,
"ew": 454,
"ran": 455,
"ine": 456,
"ial": 457,
"Ġ--": 458,
"Ġof": 459,
"ener": 460,
"Ġreal": 461,
"low": 462,
"int": 463,
"Ġbe": 464,
"acket": 465,
"oun": 466,
"der": 467,
"ect": 468,
"ĠL": 469,
"s.": 470,
"/api/": 471,
"s:": 472,
"Ġas": 473,
"venue": 474,
"ust": 475,
"ĠRe": 476,
"Ġ\\": 477,
"Ġclaim": 478,
"ib": 479,
"Ġch": 480,
"ated": 481,
"iligence": 482,
"fe": 483,
"Ġcont": 484,
"Ġthat": 485,
"vent": 486,
"ay": 487,
"Ġval": 488,
"ode": 489,
"over": 490,
"ren": 491,
"gent": 492,
"inanceable": 493,
"se": 494,
"ck": 495,
"ĊThe": 496,
"ire": 497,
"view": 498,
"iz": 499,
"ory": 500,
"ĠD": 501,
"ols/": 502,
"put": 503,
"Ġar": 504,
"ĨĴ": 505,
"Ġrun": 506,
"atus": 507,
"It": 508,
"thon": 509,
"te": 510,
"Ġ1": 511,
"ken": 512,
"Ġlocal": 513,
"form": 514,
"ers": 515,
"ide": 516,
"lic": 517,
"nal": 518,
"Ġcomm": 519,
"Ġdiligence": 520,
"of": 521,
"out": 522,
"Ġsh": 523,
"LM": 524,
"Ġtest": 525,
"osit": 526,
"text": 527,
"ĊA": 528,
"um": 529,
"ĠU": 530,
"mark": 531,
"ench": 532,
"enchmark": 533,
"rstf": 534,
"Ġwork": 535,
"ution": 536,
"ternal": 537,
"Ċâ": 538,
"eplo": 539,
"eploy": 540,
"tt": 541,
"ger": 542,
"Ġbu": 543,
"ĠG": 544,
"ual": 545,
"ge": 546,
"ĊâĨĴ": 547,
"Ġprodu": 548,
"Ġthis": 549,
"ult": 550,
"Ġout": 551,
"ra": 552,
"Ġsc": 553,
"ef": 554,
"per": 555,
"Ġrevenue": 556,
"ĠW": 557,
"ant": 558,
"ud": 559,
"pr": 560,
"Ġreport": 561,
"Ġpacket": 562,
"pe": 563,
"og": 564,
"Ġhash": 565,
"essage": 566,
"up": 567,
"les": 568,
"Ġno": 569,
"Ġim": 570,
"Ġâľ": 571,
"Ġâľħ": 572,
"LLM": 573,
"ĊO": 574,
"ore": 575,
"ign": 576,
"Ġreview": 577,
"PI": 578,
"`,": 579,
"very": 580,
"'s": 581,
"plement": 582,
"ĠN": 583,
"PT": 584,
"ĠOver": 585,
"ub": 586,
"Ġare": 587,
"rans": 588,
"ilo": 589,
"ilot": 590,
"Ġrec": 591,
"our": 592,
"Ġtext": 593,
"ier": 594,
"GPT": 595,
"Ġgener": 596,
"his": 597,
"Ġcomp": 598,
"-re": 599,
"Ġcan": 600,
"finance": 601,
"ke": 602,
"ĊIt": 603,
"Ġappro": 604,
"elf": 605,
"Ġdet": 606,
"all": 607,
"Ġal": 608,
"\":": 609,
"are": 610,
"Ġagent": 611,
"Ġsy": 612,
"Ġrepo": 613,
"erpr": 614,
"ST": 615,
"ĠH": 616,
"python": 617,
"emo": 618,
"uth": 619,
"ical": 620,
"ection": 621,
"Ġle": 622,
"ound": 623,
"oul": 624,
"ould": 625,
"omm": 626,
"rodu": 627,
"Ġfinanceable": 628,
"hat": 629,
"Ġres": 630,
"eat": 631,
"Ġsp": 632,
"Ġtools/": 633,
"Ġtr": 634,
"Ġmod": 635,
"ph": 636,
"ron": 637,
"cess": 638,
"2.": 639,
"Ġproof": 640,
"ĠAI": 641,
"stem": 642,
"erm": 643,
"art": 644,
"Ġevent": 645,
"ach": 646,
"tif": 647,
"tifact": 648,
"reate": 649,
"bash": 650,
"Ċ```bash": 651,
"Ċpython": 652,
"ype": 653,
"ull": 654,
"pport": 655,
"ĠCI": 656,
"-f": 657,
"ransform": 658,
"oint": 659,
"/re": 660,
"Ġartifact": 661,
"ĊC": 662,
"ĊR": 663,
"md": 664,
"Ġac": 665,
"ix": 666,
"ath": 667,
"Ġaut": 668,
"js": 669,
"Ċc": 670,
"Ġ3": 671,
"elf-": 672,
"emory": 673,
"afe": 674,
"op": 675,
"edger": 676,
"Ġpilot": 677,
".py`": 678,
"ript": 679,
"rom": 680,
"rit": 681,
"own": 682,
"ss": 683,
"Ġexternal": 684,
"ata": 685,
"ĠB": 686,
"ations": 687,
"Ġne": 688,
"go": 689,
"quire": 690,
"unction": 691,
"ri": 692,
"core": 693,
"abel": 694,
"Ġsystem": 695,
"Ġfile": 696,
"--": 697,
"Ġ+": 698,
"GE": 699,
"ates": 700,
"Ġdoes": 701,
"Ġapproval": 702,
"ip": 703,
"-a": 704,
"alse": 705,
"one": 706,
"ĠThe": 707,
"ĠV": 708,
"json": 709,
"ase": 710,
"ĠI": 711,
"ild": 712,
"Ġself-": 713,
"uman": 714,
"-b": 715,
"ime": 716,
"ang": 717,
"tatus": 718,
"ace": 719,
"Ġme": 720,
"Ġ/": 721,
"Ġ/api/": 722,
"Ġrecord": 723,
"mary": 724,
"ĠEx": 725,
"ingerpr": 726,
"ingerprint": 727,
"lyph": 728,
"Ġbenchmark": 729,
"rstf_": 730,
"ru": 731,
"Ġtoken": 732,
"plementation": 733,
"Ġad": 734,
"Ġdemo": 735,
"Ġdeploy": 736,
"Ġdef": 737,
"ont": 738,
"Ġdoc": 739,
"ĠFile": 740,
"lat": 741,
"etr": 742,
"Ġledger": 743,
"ass": 744,
"ĊOver": 745,
"igned": 746,
"Ġwas": 747,
"ail": 748,
"Ġunder": 749,
"eature": 750,
"Ġfrom": 751,
"Ġwithout": 752,
"-w": 753,
"ount": 754,
".md": 755,
").": 756,
"Ġvalu": 757,
"Ġits": 758,
"rent": 759,
"ific": 760,
"onical": 761,
"0%": 762,
"amp": 763,
"oth": 764,
"ous": 765,
"Ġcode": 766,
"Ġact": 767,
"Ġconf": 768,
"s**:": 769,
"inal": 770,
"unctional": 771,
"Ġ**S": 772,
"ecution": 773,
"Ġvalue": 774,
"Ġ->": 775,
"Ġint": 776,
"prove": 777,
"llm": 778,
"ttp": 779,
"ame": 780,
"Ġreprodu": 781,
"ible": 782,
"sw": 783,
"Ġreceipts": 784,
"Ġlabel": 785,
"ves": 786,
"ak": 787,
"OST": 788,
"ask": 789,
"ens": 790,
"Ġsum": 791,
"ies": 792,
"Ġsec": 793,
"ule": 794,
"side": 795,
"ied": 796,
"ug": 797,
"here": 798,
"ama": 799,
"API": 800,
"Ġonly": 801,
"Ġsupport": 802,
"enc": 803,
"Ċ1": 804,
"Ġword": 805,
"provement": 806,
"Ġhuman": 807,
"Ġrate": 808,
"**,": 809,
"Ġexport": 810,
"ility": 811,
"ĠWhat": 812,
"ked": 813,
"Ġinto": 814,
"ser": 815,
"Ġatt": 816,
"point": 817,
"Ġoutput": 818,
"Ġsub": 819,
"Ġ5": 820,
"Ġvaluation": 821,
"fingerprint": 822,
"),": 823,
"its": 824,
"arial": 825,
"versarial": 826,
"ood": 827,
"versed": 828,
"ary": 829,
"Ġexp": 830,
"Ġbec": 831,
"llama": 832,
"ption": 833,
"Ġuser": 834,
"Ġshould": 835,
"Ġ`/api/": 836,
"ument": 837,
"erc": 838,
"Ġread": 839,
"ich": 840,
"Ġscore": 841,
"ell": 842,
"Ġmemory": 843,
"eline": 844,
"/rstf": 845,
"overllm": 846,
"irst": 847,
"Ġansw": 848,
"agent": 849,
"eng": 850,
"heck": 851,
"Ġcheck": 852,
"Ġpre": 853,
"Ġwhat": 854,
"iles": 855,
"Ġinc": 856,
"_p": 857,
"tools/": 858,
"ĊThis": 859,
"ĠEn": 860,
"-|": 861,
"---|": 862,
"Ġ/api/finance": 863,
"cript": 864,
"GET": 865,
"Ġqu": 866,
"omog": 867,
"_re": 868,
"benchmark": 869,
"Ġfalse": 870,
"ir": 871,
"ables": 872,
"token": 873,
"Ġactual": 874,
"vel": 875,
"lock": 876,
"Ġv": 877,
"Ġ`go": 878,
"ĠOllama": 879,
"ĊE": 880,
"ject": 881,
"ill": 882,
"ast": 883,
"Ġ**D": 884,
"gr": 885,
"Ġdocument": 886,
"Ġstatus": 887,
"ĠOverGPT": 888,
"rol": 889,
"Ġab": 890,
"ender": 891,
"ele": 892,
"Ġcommand": 893,
"Ġone": 894,
"Ċ>": 895,
"Ġreposit": 896,
"eral": 897,
"s`": 898,
"Ġsigned": 899,
"ĊRe": 900,
"Im": 901,
"antic": 902,
"emantic": 903,
"_fingerprint": 904,
"Ġreco": 905,
"Ġdetect": 906,
"the": 907,
"can": 908,
"Ġposit": 909,
"epend": 910,
"amples": 911,
"food": 912,
"use": 913,
"ost": 914,
"Ġwhen": 915,
"Ġback": 916,
"iss": 917,
"onom": 918,
"ully": 919,
"Ġpath": 920,
"Ġoper": 921,
"ard": 922,
"Ġbuild": 923,
"main": 924,
"4.": 925,
"tatus**:": 926,
"Ġ**Status**:": 927,
"Ġvi": 928,
"atch": 929,
"urrent": 930,
"Ġwhich": 931,
"-c": 932,
"aseline": 933,
"Ġver": 934,
"erge": 935,
"Ġtests": 936,
"ĠTier": 937,
".c": 938,
"/d": 939,
"mpt": 940,
"feren": 941,
"Ġ**C": 942,
"Ġtransform": 943,
"ware": 944,
"-read": 945,
"ollat": 946,
"ollateral": 947,
"less": 948,
"ed,": 949,
"Ġthes": 950,
"Ġ=": 951,
"_packet": 952,
"dpoint": 953,
"Ċ|---|": 954,
"Ċ|---|---|": 955,
"Ġsummary": 956,
"writ": 957,
"Ġcreate": 958,
"-s": 959,
"ource": 960,
"enerate": 961,
"ative": 962,
"Ġfull": 963,
"Ġ[": 964,
"Ġbyte": 965,
"ring": 966,
"idi": 967,
"omoglyph": 968,
"ified": 969,
"_s": 970,
"/`": 971,
"Ġse": 972,
"Ġbound": 973,
"Ġdeployment": 974,
"get": 975,
"cel": 976,
"face": 977,
"Ġi": 978,
"Message": 979,
"ĠiMessage": 980,
"Ġrequire": 981,
"ify": 982,
"\",": 983,
"ython": 984,
"ĠComm": 985,
"ĠSt": 986,
"url": 987,
"ĠNo": 988,
"ĠFunctional": 989,
"Ġinternal": 990,
"pon": 991,
"Ġ**F": 992,
"Ġexecution": 993,
"Ġcor": 994,
"lowed": 995,
"urn": 996,
"/p": 997,
"Ġconvers": 998,
"ĠMac": 999,
"ercial": 1000,
"low-": 1001,
"Ġloop": 1002,
"iness": 1003,
"Ġgate": 1004,
"Ġprop": 1005,
"_d": 1006,
"Ġwording": 1007,
"Ġbaseline": 1008,
"my": 1009,
"igh": 1010,
"Ġchar": 1011,
"ĠOverLLM": 1012,
"ttps:": 1013,
"ttps:/": 1014,
"AD": 1015,
"time": 1016,
"Ġreproduc": 1017,
"udit": 1018,
"Ġass": 1019,
"ayer": 1020,
"Ġlayer": 1021,
"finance_packet": 1022,
"Ġent": 1023,
"POST": 1024,
"cription": 1025,
"Ġunderwrit": 1026,
"VE": 1027,
"-d": 1028,
"work": 1029,
"ĠEvidence": 1030,
"ocal": 1031,
".md`": 1032,
"emantic_fingerprint": 1033,
"semantic_fingerprint": 1034,
"Ġrevers": 1035,
"ride": 1036,
"ind": 1037,
"Ġem": 1038,
"onical_": 1039,
"Ġfl": 1040,
"test": 1041,
"ample": 1042,
"Ġdetection": 1043,
"5.": 1044,
"Ġover": 1045,
"Ġbut": 1046,
"Ġexamples": 1047,
"git": 1048,
"omer": 1049,
"ustomer": 1050,
"Ġdata": 1051,
"cost": 1052,
"6.": 1053,
"Ġman": 1054,
"ha": 1055,
"ause": 1056,
"Ġbecause": 1057,
"ging": 1058,
"Ġneed": 1059,
"ĠVer": 1060,
"ock": 1061,
".json": 1062,
"onomous": 1063,
"Ġproduct": 1064,
"Ġser": 1065,
"Ġpub": 1066,
"-p": 1067,
"Ġ1.": 1068,
"erminal": 1069,
"rib": 1070,
"urity": 1071,
"ification": 1072,
"Ġper": 1073,
"ond": 1074,
"flow": 1075,
"ential": 1076,
"Ġdis": 1077,
"Ġsafe": 1078,
"ruct": 1079,
"ugh": 1080,
"elligence": 1081,
"Ġstron": 1082,
"Ġpri": 1083,
"Ġcontact": 1084,
"Ġsent": 1085,
"ove": 1086,
"Ġso": 1087,
"ĊOverGPT": 1088,
"rect": 1089,
"ĠAgent": 1090,
"Ġimprovement": 1091,
"Ġfail": 1092,
"Ġcharact": 1093,
"render": 1094,
"ttps://": 1095,
"ages": 1096,
"-first": 1097,
"Ġanswer": 1098,
"Ġchain": 1099,
"ĊS": 1100,
"local": 1101,
"ference": 1102,
"Ġpart": 1103,
"Ġcle": 1104,
"ark": 1105,
"Ġproduce": 1106,
"Ġpay": 1107,
"Ġgran": 1108,
"Ġgrant": 1109,
"Ġ`api/": 1110,
"ok": 1111,
"Ġmore": 1112,
"yer": 1113,
"Ġbuyer": 1114,
"hy": 1115,
"/report": 1116,
"Ġmon": 1117,
"ret": 1118,
"ĠIt": 1119,
"not": 1120,
"rap": 1121,
"Ġmessage": 1122,
"fl": 1123,
"ĠUn": 1124,
"ree": 1125,
"hash": 1126,
"Ġflag": 1127,
"60": 1128,
"mod": 1129,
"ependent": 1130,
"Ġruns": 1131,
"ish": 1132,
"Ġscan": 1133,
"wn": 1134,
"Ġcustomer": 1135,
"Ġeval": 1136,
"Ġall": 1137,
"00%": 1138,
"Ġsee": 1139,
"Ġbef": 1140,
"Ġbefore": 1141,
"ange": 1142,
"arget": 1143,
"only": 1144,
"-only": 1145,
"Ġsend": 1146,
"Ġthese": 1147,
"Ġmust": 1148,
"ranch": 1149,
"Ġ2.": 1150,
"ON": 1151,
"0.": 1152,
"ĠReact": 1153,
"Ġshow": 1154,
"-m": 1155,
"Ġevery": 1156,
"ĠApp": 1157,
"tegr": 1158,
"tegration": 1159,
"Ġlist": 1160,
"ðŁ": 1161,
"ĠðŁ": 1162,
"Ġ**Des": 1163,
"ror": 1164,
"Ġfol": 1165,
"ability": 1166,
"acked": 1167,
"):": 1168,
".go": 1169,
"Ġtask": 1170,
"low-up": 1171,
"rough": 1172,
"ĊN": 1173,
"ĠPR": 1174,
"redential": 1175,
"versed`": 1176,
"atin": 1177,
"Ġtools/rstf_": 1178,
"ME": 1179,
"etry": 1180,
"metry": 1181,
"es,": 1182,
"Ġchang": 1183,
"Ġgenerated": 1184,
"-e": 1185,
"Ġrepository": 1186,
"arket": 1187,
"Ġmeas": 1188,
"ured": 1189,
"Ġevidence.": 1190,
"ormal": 1191,
"ives": 1192,
"Ġfiles": 1193,
"Ġresult": 1194,
"ther": 1195,
"vo": 1196,
"ĠFinanceable": 1197,
"Ġcons": 1198,
"Ġ`GET": 1199,
"/s": 1200,
"finance_packet.py": 1201,
"Ġtools/finance_packet.py": 1202,
"25": 1203,
"-l": 1204,
"Ġ--out": 1205,
"Ġexact": 1206,
"tes": 1207,
"Ġsame": 1208,
"upside": 1209,
"icode": 1210,
"override": 1211,
"stit": 1212,
"canonical_": 1213,
"ÇĿ": 1214,
"tic": 1215,
"tools/rstf_": 1216,
"Ġ(`": 1217,
"wo": 1218,
"led": 1219,
"imate": 1220,
"lish": 1221,
"Ġown": 1222,
"OR": 1223,
"Ġcount": 1224,
"Ġtokeniz": 1225,
"ving": 1226,
"'t": 1227,
"Ġimplementation": 1228,
"viron": 1229,
"vironment": 1230,
"gre": 1231,
"Ġblock": 1232,
"ute": 1233,
"Ġy": 1234,
"loud": 1235,
"Ġtarget": 1236,
"ĠLocal": 1237,
"ĠAPI": 1238,
"Ġautonomous": 1239,
"Ġis:": 1240,
"Ġag": 1241,
"ĊB": 1242,
"vice": 1243,
"ĠCon": 1244,
"ĠGit": 1245,
"Ġset": 1246,
"ĠCommand": 1247,
"lan": 1248,
"ĠPython": 1249,
"Ġbo": 1250,
"Ċcurl": 1251,
"redi": 1252,
"Ġ'": 1253,
"Ġpublic": 1254,
"ĠTerminal": 1255,
"pen": 1256,
"ered": 1257,
"ĠFully": 1258,
"Ġ**Description": 1259,
"Ġ**Description**:": 1260,
"Ġ**Im": 1261,
"plementation**:": 1262,
"Ġ**Implementation**:": 1263,
"ĠJ": 1264,
"ĠIn": 1265,
"etric": 1266,
"ĠAct": 1267,
"ault": 1268,
"other": 1269,
"isal": 1270,
"raisal": 1271,
"quest": 1272,
"den": 1273,
"Ġoption": 1274,
"Ċ1.": 1275,
"Ċ2.": 1276,
"3.": 1277,
"key": 1278,
"Ġ]": 1279,
"ake": 1280,
"Ġcommercial": 1281,
"Ġintelligence": 1282,
"ved": 1283,
"Ġintent": 1284,
"Ġvers": 1285,
"Ġmerge": 1286,
"utput": 1287,
"ĊOutput": 1288,
"ĊOutputs:": 1289,
"Ġcredential": 1290,
"Ġqual": 1291,
"Ġquality": 1292,
"Ġvir": 1293,
"evel": 1294,
"ĠLevel": 1295,
"Ġlog": 1296,
".go`": 1297,
"g/": 1298,
"kg/": 1299,
"Ġcontrol": 1300,
"benchmark/rstf": 1301,
"Ġ100%": 1302,
"ĠRender": 1303,
"EAD": 1304,
"elemetry": 1305,
"Ġreceipts,": 1306,
"ized": 1307,
"engine": 1308,
"angu": 1309,
"anguage": 1310,
"ĠThis": 1311,
"Ġpla": 1312,
"Ġmarket": 1313,
"Ġwho": 1314,
"Ġpack": 1315,
"Ġdes": 1316,
"Ġsur": 1317,
"inked": 1318,
"Ġreviewer": 1319,
"ise": 1320,
"atter": 1321,
"Ġ`POST": 1322,
"Ġevents": 1323,
"Ġusage": 1324,
"ation,": 1325,
"ĠCS": 1326,
"Ġrecords": 1327,
"..": 1328,
"LE": 1329,
"LLM_": 1330,
"RLLM_": 1331,
"VERLLM_": 1332,
"256": 1333,
"dd": 1334,
"oc": 1335,
"IN": 1336,
"fer": 1337,
"Ġmodule": 1338,
"Ġbytes": 1339,
"Ġspec": 1340,
"ĠUnicode": 1341,
"yr": 1342,
"yril": 1343,
"yrillic": 1344,
"ĩ\"": 1345,
"sÇĿ": 1346,
"sÇĿÊ": 1347,
"Êĩ": 1348,
"sÇĿÊĩ\"": 1349,
"ÊĩsÇĿÊĩ\"": 1350,
"Ġtables": 1351,
"Ġdetector": 1352,
"Ġexist": 1353,
"adversarial": 1354,
"Ġhand": 1355,
"gitimate": 1356,
"Ġnon": 1357,
"ogfood": 1358,
"ixed": 1359,
"Ġbug": 1360,
"Ġpositive": 1361,
"Ġeach": 1362,
"Ġsa": 1363,
"Ġchange": 1364,
"Ġconfus": 1365,
"Ġadversarial": 1366,
"ĠTr": 1367,
"aining": 1368,
"ĠVercel": 1369,
"ml": 1370,
"chain": 1371,
"ired": 1372,
"Ġsource": 1373,
"app": 1374,
"Ġperm": 1375,
".**": 1376,
"Ġstate": 1377,
"Ġagain": 1378,
"Ġagainst": 1379,
"Ġcl": 1380,
"ĠDeploy": 1381,
"eb": 1382,
"Ġbranch": 1383,
"Ġinst": 1384,
"rediction": 1385,
"Ġapplic": 1386,
"Ġintegration": 1387,
"Ġaccess": 1388,
"Ġhe": 1389,
"Ġuna": 1390,
"Ġ**API": 1391,
"ĠJS": 1392,
"ĠJSON": 1393,
"eatures**:": 1394,
"Ġ**Features**:": 1395,
"Ġdire": 1396,
"Ġrespon": 1397,
"ural": 1398,
"ful": 1399,
"oring": 1400,
"Ġdefault": 1401,
"7.": 1402,
"8.": 1403,
"ff": 1404,
"ition": 1405,
"Ġinter": 1406,
"Ċ3.": 1407,
"Ċ4.": 1408,
"Ċ5.": 1409,
"Ġpers": 1410,
"ĠĠ": 1411,
"ation.": 1412,
"Ġoptional": 1413,
"Ġstill": 1414,
"gest": 1415,
"ator": 1416,
"Ġfollow-up": 1417,
"Ġdefin": 1418,
"Ġreply": 1419,
"Ġthan": 1420,
"Ġexplic": 1421,
"Ġexplicit": 1422,
"Ġuns": 1423,
"Ġversion": 1424,
"Ġra": 1425,
"Ġraw": 1426,
"reak": 1427,
"through": 1428,
"reakthrough": 1429,
"Ġbreakthrough": 1430,
"Ġcorrect": 1431,
"Ġstable": 1432,
"Ġat": 1433,
"Ġwould": 1434,
"wall": 1435,
"irewall": 1436,
"eful": 1437,
"Ġuseful": 1438,
"Ġarmy": 1439,
"Ġro": 1440,
"Ġincre": 1441,
"ten": 1442,
"Ġpropos": 1443,
"Ġ4": 1444,
"ted": 1445,
"/pkg/": 1446,
"Ġ`go/pkg/": 1447,
"Ġcase": 1448,
"Ġhere": 1449,
"*`": 1450,
"Ġcharacter": 1451,
"-word": 1452,
"/over": 1453,
"rep": 1454,
"sv": 1455,
"EADME": 1456,
"yle": 1457,
"Over": 1458,
"Ġproven": 1459,
"financeable": 1460,
"++": 1461,
"Ġengine": 1462,
"Ġ**R": 1463,
"Ġlanguage": 1464,
"Ġde": 1465,
"onent": 1466,
"Ġcomponent": 1467,
"Ġfork": 1468,
"Ġproduction": 1469,
"-ready": 1470,
"Ġunless": 1471,
"Ġpass": 1472,
"ĊOverLLM": 1473,
"Ġaudit": 1474,
"Ċ```text": 1475,
"able,": 1476,
"hether": 1477,
"Ġwhether": 1478,
"ice": 1479,
"Ġincl": 1480,
"Ġinclud": 1481,
"ike": 1482,
"erprise": 1483,
"Ġenterprise": 1484,
"ĠEndpoint": 1485,
"Ċ|---|---|---|": 1486,
"Ġ/api/finance/re": 1487,
"ĠRevenue": 1488,
"ink": 1489,
"ummary": 1490,
"ces": 1491,
"/c": 1492,
"ĠCSV": 1493,
"read": 1494,
"...": 1495,
"Ġusing": 1496,
"LED": 1497,
"SE": 1498,
"Ġ--s": 1499
}